00010111
11001100
11011111
00011001
11111010
00100011
00110110
10011101
00110001
00110010
00001101
00011100
00101100
00111101
00101000
00100001
00100001
00000000
00000001
00101001
00000100
00111100
11100001
00001111
00101100
00010000
00101000
00011111
11110111
00011100
11101100
11001001
11011110
00110010
10100100
11111100
11001100
11100011
00110111
00010000
11111010
00010100
00010010
10101011
00101010
10111100
00010100
01000011
11000011
10000001
10110100
00011001
00000000
00011011
00011010
11111111
00100111
11110010
00001001
00110010
00010000
00000100
00101000
00010001
