00000011
00000000
11010001
11110001
11011010
00011000
00000100
11011101
11100001
11001010
00110001
00111010
11101100
01111111
11100111
11100110
00001100
00110100
00100000
10110110
00000111
00010000
00111101
00011010
00011011
00110111
00100001
00001100
11011010
00001001
11000110
11010110
11111110
00011100
00000111
00111001
11010101
11011000
00001000
00011110
11011100
00001111
00010010
00011010
00000000
11101001
11000000
11110010
11000000
11010001
10111010
11110000
00111100
00001110
00010001
00110111
11111001
00011101
00011000
11100001
00101100
11101000
11100001
00001000
11001001
01000111
11101111
11010111
11011111
00111011
11000111
11111000
00110010
11100000
00100101
11111011
11101111
10100111
11011100
11001101
11110001
11101000
11011010
11100011
00000011
00101101
00000101
00011111
00011111
11000110
11101010
11000110
11011010
00110110
11010111
11110110
00100011
01010110
10110001
00011001
11101110
11111011
11100110
00010000
11100000
00101000
00001100
10100101
00000001
00000011
00011111
11111000
00001111
00011000
11111100
00101001
00110111
11111101
11111010
00011111
11010001
11111001
00010101
11100010
00110001
00010110
11110011
11101000
