11100101
11110001
01011111
01010010
01010100
01001010
01100111
11011010
11000011
00001100
11011000
00001110
00001011
00010000
00010011
00011101
11100001
11110111
01100001
00010001
00100001
11100110
10111110
11101010
00011101
00010010
01011001
01011010
00100110
11111101
10101011
10010001
10010111
11011001
00011010
01010101
01010110
00000100
10101011
10001011
10000001
10001101
10100111
00000110
01010100
01011000
00100000
11101011
10101110
10000101
10101101
11101001
00100101
01011111
01100001
00001101
00100100
11101111
10111010
11011001
00010100
00010101
01011110
11111011
11100000
00100001
00010000
00011000
00011000
00010000
11011011
00001000
11000001
11001101
01100011
01001111
01010110
01010110
01011100
11111000
11011111
