11110111
11100010
00111000
00011001
00000110
00100101
00110111
00101010
00000011
00001000
00111101
01000100
00011100
11110000
00001010
00111011
00000111
01000101
11101001
11110000
00101001
00011000
11011110
00100100
00100011
01111111
11001000
00100110
11111111
11110001
01110100
00010011
11101000
00001110
11110001
11001101
00000100
11100010
11001110
00100000
11100010
00001100
00110111
00010111
11100100
00011010
00110110
11111000
00100100
00101011
11000010
00100110
00100011
10110100
00100010
01010111
11110110
11011110
00110101
00101010
01111010
11100011
00000000
11010110
