00001110
00100110
11011101
00100100
00011101
00010000
01111111
00011111
01000001
01101001
11100101
00111110
01001010
11101111
00011001
11111000
00011000
11010011
01100011
00010011
00010101
00110110
11111110
00101110
00001101
01011010
01001010
00100110
00000010
00010011
00010011
00100100
00011101
00001011
00101000
00110001
00110010
00001100
11101111
00100001
00001101
00101110
00000011
11101111
11111000
00110100
00110001
00011010
11111100
00101011
00110111
00101110
00001001
11100000
01000101
00111000
00010111
11111100
01100011
00001100
11011100
00101101
11111000
00100101
