00111001
11011001
00100100
00001110
00001111
00000111
01010110
11001001
00000000
11110101
01000110
00110000
11010011
11100010
10000001
00001011
11100111
00000100
00011110
11111001
01010110
00110110
11001000
11101010
00011001
00010111
00011011
00010111
01110101
11100111
11001001
00011110
00010001
00101000
00110001
11111101
01001010
00111011
11100101
10111101
00010100
11110011
01000000
00000101
11100000
11011011
11100010
00010001
00101000
00011100
00101010
11101011
00111101
11110100
11000010
01001000
00100101
11000101
11010110
00100111
00010101
00010110
00100011
11001101
