01000010
00011101
11111110
01000001
00101000
00110000
11010001
11011001
00011010
00000111
11111011
00111101
00110001
00100001
11101000
00011010
11111110
00101011
11011110
01001111
11110011
00100100
11101000
01001101
11111010
00001000
01001000
11111001
00001100
01010111
00011111
11111111
00110101
11110111
11110100
00100100
00011010
01111111
01101101
11110010
00100100
00101001
00101000
11100010
00000010
11110111
01000111
00001010
01101110
01100111
11101100
11111100
11001010
00010101
01000001
11011110
01000000
01000000
00101000
11011110
00001110
00011111
11010100
01000010
