10110011
01001100
10100110
11001001
00111100
11001001
10000001
11111111
11001011
11000110
10100100
00100011
00111110
00111111
01000111
00011111
11101011
11011000
00101111
10001010
01000100
00100111
00111111
00101011
11001101
00110110
01000110
11010010
00110000
11011101
11011010
01001010
00111010
10101011
10110001
01000010
11010001
11000001
01000000
01000111
00110111
00111110
00000011
01011000
01001011
01001000
10101001
00000001
01010110
11000010
01000101
10111000
00100101
00110010
00101101
01010101
00011110
01101010
11111000
11001100
10000010
01001000
11001101
10100100
