00000000
11101000
00100110
11001001
11100000
11110111
00000010
11011001
11111111
11010000
10111001
11111010
10110001
11111111
00000101
11110011
11001010
00000000
00010101
11101101
00111111
11101011
00011101
00110111
00010110
11111100
11101111
00100010
11111000
00011010
11101000
11111110
10111111
00000100
11111101
11110101
00001110
00101101
00110001
11100100
11101000
11100001
01100110
00000110
10111000
00110111
11110101
10000001
00000001
00001100
11110111
00001101
00010100
10111101
10111101
00000001
00011111
11100001
10101111
00000100
11100011
01001000
11001111
00110111
