00110010
01000100
11010000
10101001
00001100
11011101
11011001
11110100
10111111
11110000
10101111
00010010
00101101
01011111
00000111
01001101
00000000
10010110
01011000
11001000
00001101
01011000
11111111
01010111
10111011
01001101
01000001
10011000
11100010
10001011
10001100
11101010
00000001
10000001
10110110
01010000
10100100
10111010
01001000
01000100
00001011
00011100
11000000
11110000
11001010
11110101
01001001
00001101
00001001
00000001
11110111
00110011
01010000
11101100
00010000
00010110
01000011
11110001
10110000
11010101
00111110
00010101
10110110
10110000
